041f07a1fe1506c6fc30fd1bf9e4fbdefd19076dfc38ff0e01c205d105d202cc028f03c6fb90fac105edf8f602f002bd01c7f8f607a5ff060086f80dfc0505bcfece03c606c1fa7507e0faeb070bf964ff7e0544fc7f05e8079f0578ff2ffdeeffb9f97afba0009603bbff2ffce307280404ff8eff5103f105b0fcb203bc04f10632f866003301cefc7cff3c008007d1f818fb38fc1cfd74f8d9fd39fb2c05440232f95efb8602e6fa27074efa2f04c3fff9fce0fbbf064afe0af939f88aff6305fbfd9c052d0728f913fcc401e8fcd4faccffee042b02fffbf801f4fd0dfc6f06e1fc79072efb3b010cfe1604eefa0a073903a9facf0316f97c00e7f9a4f8b3fe48
fd02030f03a202b401770610009af991fa43076504c5f81c0722027d0692fa71016b000ffac8f90102a2f883fbcf003f01a3fc87057d0651039206d3f8f2f8cdf9fbf9f40080069cfaeb07dd0614fd2bfb10fff3fd08f87cf97b016d02250776f83d03bb02200007f9ef05ba033d011907b3f97203a2ffd1fc7d062a04ecff0802440219f823fb8cfb78fb8603dc0711fc4303f5f80804f304e9f8dff99500da043503b202eb04340197fbc5f8730696fea00393fc4107b0fad9f8c0ffe8fdee027df800fa4a05be02edfd50f866f8adfe3c071706b3fd09fdf5fc45fa450177ff69055effedf849ff02fa25fd52000500b2031e076dfe000416007505d600f9fe1d
02190000007a07c5f8fbf8b8fb1cf810f9b1fe50fb47ffb6058702370447054afa08f8b5ff2cff77075dfc20ff1b00f2059afa0106db0146ff67ff18f8ccfc6701eb06b406bbfc190094fce5fde3fd9efeedf80dff47fd06fc380129ffdb0384ff6c059e049d00a807240258febefb9ffa99fdadfbeeff7c046cf89e0483fab1016cf8120555037bfadb06b4fda401ccfb76fffa02effb2afd37fef000e2fca9ff91f9abff02f857fadd069cfb4ffdd3fae6015d0169064a03ba0719fb1efbdb05db05ecfa24fdcef838fbbdfd89fcf0f9f10741fdbaff8f031e050b063b0167062500dd04bbfbe103fefc25013b06f901d4f921064a0050f959fdfc03b9f97d02af
f9e207f1fb07023406c70500fbc4028f05fc02e0fac5052c057a0601f9f3fe350068fa06fe5206a60415f90203bd008b079e030607d3fe55048804defa1dfb1f00d9050dfc1df851fcd9fdd501befb01fc2701f2fa1cfea7fedffa14fa5bfe4f03d3023e04aa0279f8cb04d4fcc2fea3fb96039704d405befc1e01d0fd340522fa1604830100fb4df891f98d06020398041d00cbfe28fe57f8f001b102d8f9b6053802fe0728074a05610009feb2f83afdfafa1ef87501e50183039e018e00bb0139fed00576f91ef89cf867ff73035d045900f60518050bfb32fb7705c307f2fb3401a8fc5200bc06f6fb81f8cf014805570099013101f3ffcaf919ffd30187f8e8
